TRT-100100-MinMaxCalibration
images: 3c010204
/model.0/conv/Conv_output_0: 3ebe29a8
/model.0/act/Sigmoid_output_0: 3c010204
/model.0/act/Mul_output_0: 3ebe29a8
/model.1/cv1/conv/Conv_output_0: 3eb8913e
/model.1/cv1/act/Sigmoid_output_0: 3c010204
/model.1/cv1/act/Mul_output_0: 3eb8913e
/model.1/cv2/conv/Conv_output_0: 3e8cdc4d
/model.1/cv2/act/Sigmoid_output_0: 3c010204
/model.1/cv2/act/Mul_output_0: 3e8cdc4d
/model.1/Concat_output_0: 3eb8913e
/model.2/cv1/conv/Conv_output_0: 3e9a3aa7
/model.2/cv2/conv/Conv_output_0: 3e52dba6
/model.2/cv1/act/Sigmoid_output_0: 3c0101f1
/model.2/cv2/act/Sigmoid_output_0: 3c010204
/model.2/cv1/act/Mul_output_0: 3dd178fb
/model.2/cv2/act/Mul_output_0: 3e52dba6
/model.2/m/m.0/conv/conv.0/cv1/conv/Conv_output_0: 3df530fd
/model.2/m/m.0/conv/conv.0/cv1/act/Sigmoid_output_0: 3c010202
/model.2/m/m.0/conv/conv.0/cv1/act/Mul_output_0: 3df530f8
/model.2/m/m.0/conv/conv.0/cv2/conv/Conv_output_0: 3df7b9d5
/model.2/m/m.0/conv/conv.0/cv2/act/Sigmoid_output_0: 3c0101c3
/model.2/m/m.0/conv/conv.0/cv2/act/Mul_output_0: 3dbdd87a
/model.2/m/m.0/conv/conv.0/Concat_output_0: 3df530f8
/model.2/m/m.0/conv/conv.2/cv1/conv/Conv_output_0: 3df88954
/model.2/m/m.0/conv/conv.2/cv2/conv/Conv_output_0: 3dae6df0
/model.2/m/m.0/conv/conv.2/Concat_output_0: 3df88954
/model.2/m/m.0/Add_output_0: 3e1b9aa1
/model.2/Concat_output_0: 3e52dba6
/model.2/cv3/conv/Conv_output_0: 3e3a26af
/model.2/cv3/act/Sigmoid_output_0: 3c0101d1
/model.2/cv3/act/Mul_output_0: 3dc19498
/model.3/cv1/conv/Conv_output_0: 3daf9ad5
/model.3/cv1/act/Sigmoid_output_0: 3c01006b
/model.3/cv1/act/Mul_output_0: 3da03601
/model.3/cv2/conv/Conv_output_0: 3ddef4ec
/model.3/cv2/act/Sigmoid_output_0: 3c0101fc
/model.3/cv2/act/Mul_output_0: 3ddef4de
/model.3/Concat_output_0: 3ddef4de
/model.4/cv1/conv/Conv_output_0: 3d987c6d
/model.4/cv2/conv/Conv_output_0: 3dbe0187
/model.4/cv1/act/Sigmoid_output_0: 3c00fd42
/model.4/cv2/act/Sigmoid_output_0: 3c0101c4
/model.4/cv1/act/Mul_output_0: 3d8e857b
/model.4/cv2/act/Mul_output_0: 3dbe0128
/model.4/m/m.0/conv/conv.0/cv1/conv/Conv_output_0: 3d6b2117
/model.4/m/m.0/conv/conv.0/cv1/act/Sigmoid_output_0: 3c00eb81
/model.4/m/m.0/conv/conv.0/cv1/act/Mul_output_0: 3d6af80f
/model.4/m/m.0/conv/conv.0/cv2/conv/Conv_output_0: 3dc63379
/model.4/m/m.0/conv/conv.0/cv2/act/Sigmoid_output_0: 3c00eb0b
/model.4/m/m.0/conv/conv.0/cv2/act/Mul_output_0: 3d6a4fb3
/model.4/m/m.0/conv/conv.0/Concat_output_0: 3d6af80f
/model.4/m/m.0/conv/conv.2/cv1/conv/Conv_output_0: 3d8ef83a
/model.4/m/m.0/conv/conv.2/cv2/conv/Conv_output_0: 3d7b5310
/model.4/m/m.0/conv/conv.2/Concat_output_0: 3d8ef83a
/model.4/m/m.0/Add_output_0: 3dc9639a
/model.4/m/m.1/conv/conv.0/cv1/conv/Conv_output_0: 3d85dda9
/model.4/m/m.1/conv/conv.0/cv1/act/Sigmoid_output_0: 3c00f9ca
/model.4/m/m.1/conv/conv.0/cv1/act/Mul_output_0: 3d85d520
/model.4/m/m.1/conv/conv.0/cv2/conv/Conv_output_0: 3d49de8f
/model.4/m/m.1/conv/conv.0/cv2/act/Sigmoid_output_0: 3c00c22b
/model.4/m/m.1/conv/conv.0/cv2/act/Mul_output_0: 3d49143d
/model.4/m/m.1/conv/conv.0/Concat_output_0: 3d85d520
/model.4/m/m.1/conv/conv.2/cv1/conv/Conv_output_0: 3d7f5a85
/model.4/m/m.1/conv/conv.2/cv2/conv/Conv_output_0: 3d69670d
/model.4/m/m.1/conv/conv.2/Concat_output_0: 3d7f5a85
/model.4/m/m.1/Add_output_0: 3de13798
/model.4/Concat_output_0: 3de13798
/model.4/cv3/conv/Conv_output_0: 3d895d59
/model.4/cv3/act/Sigmoid_output_0: 3c00fb6e
/model.4/cv3/act/Mul_output_0: 3d895656
/model.5/cv1/conv/Conv_output_0: 3d80807b
/model.5/cv1/act/Sigmoid_output_0: 3c00f697
/model.5/cv1/act/Mul_output_0: 3d807519
/model.5/cv2/conv/Conv_output_0: 3e195525
/model.5/cv2/act/Sigmoid_output_0: 3c0101a9
/model.5/cv2/act/Mul_output_0: 3db88d7d
/model.5/Concat_output_0: 3db88d7d
/model.6/cv1/conv/Conv_output_0: 3d92c97f
/model.6/cv2/conv/Conv_output_0: 3da103a5
/model.6/cv1/act/Sigmoid_output_0: 3c00f5da
/model.6/cv2/act/Sigmoid_output_0: 3c01007c
/model.6/cv1/act/Mul_output_0: 3d7ee4e3
/model.6/cv2/act/Mul_output_0: 3da101bb
/model.6/m/m.0/conv/conv.0/cv1/conv/Conv_output_0: 3d8421d2
/model.6/m/m.0/conv/conv.0/cv1/act/Sigmoid_output_0: 3c00f3c3
/model.6/m/m.0/conv/conv.0/cv1/act/Mul_output_0: 3d79c458
/model.6/m/m.0/conv/conv.0/cv2/conv/Conv_output_0: 3da99e9f
/model.6/m/m.0/conv/conv.0/cv2/act/Sigmoid_output_0: 3c01011f
/model.6/m/m.0/conv/conv.0/cv2/act/Mul_output_0: 3da99d73
/model.6/m/m.0/conv/conv.0/Concat_output_0: 3da99d73
/model.6/m/m.0/conv/conv.2/cv1/conv/Conv_output_0: 3d5842f3
/model.6/m/m.0/conv/conv.2/cv2/conv/Conv_output_0: 3d9e06b5
/model.6/m/m.0/conv/conv.2/Concat_output_0: 3d9e06b5
/model.6/m/m.0/Add_output_0: 3db8c525
/model.6/m/m.1/conv/conv.0/cv1/conv/Conv_output_0: 3d6f979b
/model.6/m/m.1/conv/conv.0/cv1/act/Sigmoid_output_0: 3c00ee6a
/model.6/m/m.1/conv/conv.0/cv1/act/Mul_output_0: 3d6f7333
/model.6/m/m.1/conv/conv.0/cv2/conv/Conv_output_0: 3dbced07
/model.6/m/m.1/conv/conv.0/cv2/act/Sigmoid_output_0: 3c0101bf
/model.6/m/m.1/conv/conv.0/cv2/act/Mul_output_0: 3dbceca2
/model.6/m/m.1/conv/conv.0/Concat_output_0: 3dbceca2
/model.6/m/m.1/conv/conv.2/cv1/conv/Conv_output_0: 3d786cfc
/model.6/m/m.1/conv/conv.2/cv2/conv/Conv_output_0: 3d892349
/model.6/m/m.1/conv/conv.2/Concat_output_0: 3d892349
/model.6/m/m.1/Add_output_0: 3dbe6841
/model.6/Concat_output_0: 3dbe6841
/model.6/cv3/conv/Conv_output_0: 3d99189b
/model.6/cv3/act/Sigmoid_output_0: 3c00ea4b
/model.6/cv3/act/Mul_output_0: 3d6943ed
/model.7/cv1/conv/Conv_output_0: 3d85e21b
/model.7/cv1/act/Sigmoid_output_0: 3c00f9cd
/model.7/cv1/act/Mul_output_0: 3d85d994
/model.7/cv2/conv/Conv_output_0: 3e1a3b16
/model.7/cv2/act/Sigmoid_output_0: 3c010202
/model.7/cv2/act/Mul_output_0: 3df59a31
/model.7/Concat_output_0: 3df59a31
/model.8/cv1/conv/Conv_output_0: 3d8b3065
/model.8/cv2/conv/Conv_output_0: 3d8670c8
/model.8/cv1/act/Sigmoid_output_0: 3c00e6ee
/model.8/cv2/act/Sigmoid_output_0: 3c00f8e9
/model.8/cv1/act/Mul_output_0: 3d64f875
/model.8/cv2/act/Mul_output_0: 3d842fdd
/model.8/m/m.0/conv/conv.0/cv1/conv/Conv_output_0: 3d4d475d
/model.8/m/m.0/conv/conv.0/cv1/act/Sigmoid_output_0: 3c00c946
/model.8/m/m.0/conv/conv.0/cv1/act/Mul_output_0: 3d4ced13
/model.8/m/m.0/conv/conv.0/cv2/conv/Conv_output_0: 3dde3297
/model.8/m/m.0/conv/conv.0/cv2/act/Sigmoid_output_0: 3c00df4a
/model.8/m/m.0/conv/conv.0/cv2/act/Mul_output_0: 3d5ce72e
/model.8/m/m.0/conv/conv.0/Concat_output_0: 3d5ce72e
/model.8/m/m.0/conv/conv.2/cv1/conv/Conv_output_0: 3d3760fb
/model.8/m/m.0/conv/conv.2/cv2/conv/Conv_output_0: 3d5158de
/model.8/m/m.0/conv/conv.2/Concat_output_0: 3d5158de
/model.8/m/m.0/Add_output_0: 3d9f2b32
/model.8/Concat_output_0: 3d9f2b32
/model.8/cv3/conv/Conv_output_0: 3da2cad3
/model.8/cv3/act/Sigmoid_output_0: 3c00e2af
/model.8/cv3/act/Mul_output_0: 3d603dcf
/model.9/cv1/conv/Conv_output_0: 3d653d8f
/model.9/cv1/act/Sigmoid_output_0: 3c00e6ff
/model.9/cv1/act/Mul_output_0: 3d650d8d
/model.9/m/MaxPool_output_0: 3d650d8d
/model.9/m_1/MaxPool_output_0: 3d650d8d
/model.9/m_2/MaxPool_output_0: 3d650d8d
/model.9/Concat_output_0: 3d650d8d
/model.9/cv2/conv/Conv_output_0: 3d514fb8
/model.9/cv2/act/Sigmoid_output_0: 3c007643
/model.9/cv2/act/Mul_output_0: 3d2f60c5
/model.10/Resize_output_0: 3d2f60c5
/model.11/Concat_output_0: 3d6943ed
/model.12/cv1/conv/Conv_output_0: 3d8ca2ea
/model.12/cv2/conv/Conv_output_0: 3d6ff30f
/model.12/cv1/act/Sigmoid_output_0: 3c00db96
/model.12/cv2/act/Sigmoid_output_0: 3c00e070
/model.12/cv1/act/Mul_output_0: 3d599bfc
/model.12/cv2/act/Mul_output_0: 3d5dfe30
/model.12/m/m.0/conv/conv.0/cv1/conv/Conv_output_0: 3d495620
/model.12/m/m.0/conv/conv.0/cv1/act/Sigmoid_output_0: 3c00ad44
/model.12/m/m.0/conv/conv.0/cv1/act/Mul_output_0: 3d3fd0a6
/model.12/m/m.0/conv/conv.0/cv2/conv/Conv_output_0: 3d57ecec
/model.12/m/m.0/conv/conv.0/cv2/act/Sigmoid_output_0: 3c00b7bc
/model.12/m/m.0/conv/conv.0/cv2/act/Mul_output_0: 3d44226f
/model.12/m/m.0/conv/conv.0/Concat_output_0: 3d44226f
/model.12/m/m.0/conv/conv.2/cv1/conv/Conv_output_0: 3d4a26ab
/model.12/m/m.0/conv/conv.2/cv2/conv/Conv_output_0: 3d5a3731
/model.12/m/m.0/conv/conv.2/Concat_output_0: 3d5a3731
/model.12/m/m.0/Add_output_0: 3d873bf4
/model.12/Concat_output_0: 3d873bf4
/model.12/cv3/conv/Conv_output_0: 3d6d8155
/model.12/cv3/act/Sigmoid_output_0: 3c00e057
/model.12/cv3/act/Mul_output_0: 3d5de600
/model.13/Resize_output_0: 3d5de600
/model.14/Concat_output_0: 3d895656
/model.15/cv1/conv/Conv_output_0: 3d59bdf4
/model.15/cv2/conv/Conv_output_0: 3d908c36
/model.15/cv1/act/Sigmoid_output_0: 3c00db71
/model.15/cv2/act/Sigmoid_output_0: 3c00fdc7
/model.15/cv1/act/Mul_output_0: 3d597cda
/model.15/cv2/act/Mul_output_0: 3d908776
/model.15/m/m.0/conv/conv.0/cv1/conv/Conv_output_0: 3d5f95cf
/model.15/m/m.0/conv/conv.0/cv1/act/Sigmoid_output_0: 3c00e1d4
/model.15/m/m.0/conv/conv.0/cv1/act/Mul_output_0: 3d5f5e06
/model.15/m/m.0/conv/conv.0/cv2/conv/Conv_output_0: 3d66c52b
/model.15/m/m.0/conv/conv.0/cv2/act/Sigmoid_output_0: 3c00e841
/model.15/m/m.0/conv/conv.0/cv2/act/Mul_output_0: 3d669715
/model.15/m/m.0/conv/conv.0/Concat_output_0: 3d669715
/model.15/m/m.0/conv/conv.2/cv1/conv/Conv_output_0: 3d887e42
/model.15/m/m.0/conv/conv.2/cv2/conv/Conv_output_0: 3d69b9fc
/model.15/m/m.0/conv/conv.2/Concat_output_0: 3d887e42
/model.15/m/m.0/Add_output_0: 3da61716
/model.15/Concat_output_0: 3da61716
/model.15/cv3/conv/Conv_output_0: 3d94608d
/model.15/cv3/act/Sigmoid_output_0: 3c00d546
/model.15/cv3/act/Mul_output_0: 3d54aa13
/model.16/Resize_output_0: 3d54aa13
/model.17/Concat_output_0: 3dc19498
/model.18/cv1/conv/Conv_output_0: 3d8efdc3
/model.18/cv2/conv/Conv_output_0: 3da6f3ac
/model.18/cv1/act/Sigmoid_output_0: 3c00fd62
/model.18/cv2/act/Sigmoid_output_0: 3c010091
/model.18/cv1/act/Mul_output_0: 3d8ef89f
/model.18/cv2/act/Mul_output_0: 3da1d0a9
/model.18/m/m.0/conv/conv.0/cv1/conv/Conv_output_0: 3d6cf64f
/model.18/m/m.0/conv/conv.0/cv1/act/Sigmoid_output_0: 3c00ecbf
/model.18/m/m.0/conv/conv.0/cv1/act/Mul_output_0: 3d6ccf3d
/model.18/m/m.0/conv/conv.0/cv2/conv/Conv_output_0: 3d84ff08
/model.18/m/m.0/conv/conv.0/cv2/act/Sigmoid_output_0: 3c00f955
/model.18/m/m.0/conv/conv.0/cv2/act/Mul_output_0: 3d84f614
/model.18/m/m.0/conv/conv.0/Concat_output_0: 3d84f614
/model.18/m/m.0/conv/conv.2/cv1/conv/Conv_output_0: 3db3625f
/model.18/m/m.0/conv/conv.2/cv2/conv/Conv_output_0: 3db6722a
/model.18/m/m.0/conv/conv.2/Concat_output_0: 3db6722a
/model.18/m/m.0/Add_output_0: 3ddf6378
/model.18/Concat_output_0: 3ddf6378
/model.18/cv3/conv/Conv_output_0: 3da95d87
/model.18/cv3/act/Sigmoid_output_0: 3c01011c
/model.18/cv3/act/Mul_output_0: 3da95c56
/model.19/cv1/conv/Conv_output_0: 3d9111ff
/model.28/cv2.0/cv2.0.0/conv/Conv_output_0: 3db8a20c
/model.28/cv3.0/cv3.0.0/conv/Conv_output_0: 3da454dd
/model.19/cv1/act/Sigmoid_output_0: 3c00fde4
/model.28/cv2.0/cv2.0.0/act/Sigmoid_output_0: 3c00fb92
/model.28/cv3.0/cv3.0.0/act/Sigmoid_output_0: 3c00fbcc
/model.19/cv1/act/Mul_output_0: 3d910d5c
/model.28/cv2.0/cv2.0.0/act/Mul_output_0: 3d89ae94
/model.28/cv3.0/cv3.0.0/act/Mul_output_0: 3d8a3cd3
/model.19/cv2/conv/Conv_output_0: 3dba8b02
/model.28/cv2.0/cv2.0.1/conv/Conv_output_0: 3dda0824
/model.28/cv3.0/cv3.0.1/conv/Conv_output_0: 3dbb0ed3
/model.19/cv2/act/Sigmoid_output_0: 3c0100c1
/model.28/cv2.0/cv2.0.1/act/Sigmoid_output_0: 3c0101f9
/model.28/cv3.0/cv3.0.1/act/Sigmoid_output_0: 3c00ec5d
/model.19/cv2/act/Mul_output_0: 3da41830
/model.28/cv2.0/cv2.0.1/act/Mul_output_0: 3dda0811
/model.28/cv3.0/cv3.0.1/act/Mul_output_0: 3d6c3ba4
/model.20/Concat_output_0: 3da41830
/model.28/cv2.0/cv2.0.2/Conv_output_0: 3e3da96c
/model.28/cv3.0/cv3.0.2/Conv_output_0: 3e8e4229
/model.21/cv1/conv/Conv_output_0: 3d7cc391
/model.21/cv2/conv/Conv_output_0: 3da99aec
/model.28/Concat_output_0: 3e8e4229
/model.21/cv1/act/Sigmoid_output_0: 3c00f4fb
/model.21/cv2/act/Sigmoid_output_0: 3c01011f
/model.28/Reshape_output_0: 3e8e4229
/model.21/cv1/act/Mul_output_0: 3d7caa07
/model.21/cv2/act/Mul_output_0: 3da999bf
/model.21/m/m.0/conv/conv.0/cv1/conv/Conv_output_0: 3d8a68b8
/model.21/m/m.0/conv/conv.0/cv1/act/Sigmoid_output_0: 3c00fbdb
/model.21/m/m.0/conv/conv.0/cv1/act/Mul_output_0: 3d8a621c
/model.21/m/m.0/conv/conv.0/cv2/conv/Conv_output_0: 3d88d96f
/model.21/m/m.0/conv/conv.0/cv2/act/Sigmoid_output_0: 3c00f390
/model.21/m/m.0/conv/conv.0/cv2/act/Mul_output_0: 3d7950f2
/model.21/m/m.0/conv/conv.0/Concat_output_0: 3d8a621c
/model.21/m/m.0/conv/conv.2/cv1/conv/Conv_output_0: 3decd88f
/model.21/m/m.0/conv/conv.2/cv2/conv/Conv_output_0: 3d82fe41
/model.21/m/m.0/conv/conv.2/Concat_output_0: 3decd88f
/model.21/m/m.0/Add_output_0: 3e09c8b7
/model.21/Concat_output_0: 3e09c8b7
/model.21/cv3/conv/Conv_output_0: 3da58523
/model.21/cv3/act/Sigmoid_output_0: 3c0100dc
/model.21/cv3/act/Mul_output_0: 3da583a7
/model.22/cv1/conv/Conv_output_0: 3da91f81
/model.28/cv2.1/cv2.1.0/conv/Conv_output_0: 3d8f35ba
/model.28/cv3.1/cv3.1.0/conv/Conv_output_0: 3d98b15d
/model.22/cv1/act/Sigmoid_output_0: 3c010118
/model.28/cv2.1/cv2.1.0/act/Sigmoid_output_0: 3c00f0fd
/model.28/cv3.1/cv3.1.0/act/Sigmoid_output_0: 3c00cb21
/model.22/cv1/act/Mul_output_0: 3da91e4c
/model.28/cv2.1/cv2.1.0/act/Mul_output_0: 3d74037d
/model.28/cv3.1/cv3.1.0/act/Mul_output_0: 3d4e0222
/model.22/cv2/conv/Conv_output_0: 3ddfa485
/model.28/cv2.1/cv2.1.1/conv/Conv_output_0: 3dd1fbe0
/model.28/cv3.1/cv3.1.1/conv/Conv_output_0: 3da5909d
/model.22/cv2/act/Sigmoid_output_0: 3c0101fc
/model.28/cv2.1/cv2.1.1/act/Sigmoid_output_0: 3c0101f1
/model.28/cv3.1/cv3.1.1/act/Sigmoid_output_0: 3c00ffde
/model.22/cv2/act/Mul_output_0: 3ddfa477
/model.28/cv2.1/cv2.1.1/act/Mul_output_0: 3dd1fbc1
/model.28/cv3.1/cv3.1.1/act/Mul_output_0: 3d9b5802
/model.23/Concat_output_0: 3ddfa477
/model.28/cv2.1/cv2.1.2/Conv_output_0: 3e367da2
/model.28/cv3.1/cv3.1.2/Conv_output_0: 3e983e67
/model.24/cv1/conv/Conv_output_0: 3d990606
/model.24/cv2/conv/Conv_output_0: 3d9176c9
/model.28/Concat_1_output_0: 3e983e67
/model.24/cv1/act/Sigmoid_output_0: 3c00ff85
/model.24/cv2/act/Sigmoid_output_0: 3c00fe08
/model.28/Reshape_1_output_0: 3e983e67
/model.24/cv1/act/Mul_output_0: 3d990310
/model.24/cv2/act/Mul_output_0: 3d91724b
/model.24/m/m.0/conv/conv.0/cv1/conv/Conv_output_0: 3d7da68f
/model.24/m/m.0/conv/conv.0/cv1/act/Sigmoid_output_0: 3c00e0af
/model.24/m/m.0/conv/conv.0/cv1/act/Mul_output_0: 3d5e3bd9
/model.24/m/m.0/conv/conv.0/cv2/conv/Conv_output_0: 3dd15836
/model.24/m/m.0/conv/conv.0/cv2/act/Sigmoid_output_0: 3c0101f0
/model.24/m/m.0/conv/conv.0/cv2/act/Mul_output_0: 3dd15816
/model.24/m/m.0/conv/conv.0/Concat_output_0: 3dd15816
/model.24/m/m.0/conv/conv.2/cv1/conv/Conv_output_0: 3dd5e897
/model.24/m/m.0/conv/conv.2/cv2/conv/Conv_output_0: 3d8da384
/model.24/m/m.0/conv/conv.2/Concat_output_0: 3dd5e897
/model.24/m/m.0/Add_output_0: 3dfc76c5
/model.24/Concat_output_0: 3dfc76c5
/model.24/cv3/conv/Conv_output_0: 3d97e231
/model.24/cv3/act/Sigmoid_output_0: 3c00f0fe
/model.24/cv3/act/Mul_output_0: 3d74066c
/model.25/cv1/conv/Conv_output_0: 3d91d1da
/model.28/cv2.2/cv2.2.0/conv/Conv_output_0: 3d919387
/model.28/cv3.2/cv3.2.0/conv/Conv_output_0: 3d63bd7f
/model.25/cv1/act/Sigmoid_output_0: 3c00fe1d
/model.28/cv2.2/cv2.2.0/act/Sigmoid_output_0: 3c00fa06
/model.28/cv3.2/cv3.2.0/act/Sigmoid_output_0: 3c00c5d1
/model.25/cv1/act/Mul_output_0: 3d91cd71
/model.28/cv2.2/cv2.2.0/act/Mul_output_0: 3d864aaf
/model.28/cv3.2/cv3.2.0/act/Mul_output_0: 3d4aff4f
/model.25/cv2/conv/Conv_output_0: 3e660bad
/model.28/cv2.2/cv2.2.1/conv/Conv_output_0: 3dbf7914
/model.28/cv3.2/cv3.2.1/conv/Conv_output_0: 3da60b87
/model.25/cv2/act/Sigmoid_output_0: 3c010204
/model.28/cv2.2/cv2.2.1/act/Sigmoid_output_0: 3c01007d
/model.28/cv3.2/cv3.2.1/act/Sigmoid_output_0: 3c00cc7e
/model.25/cv2/act/Mul_output_0: 3e660bad
/model.28/cv2.2/cv2.2.1/act/Mul_output_0: 3da111c4
/model.28/cv3.2/cv3.2.1/act/Mul_output_0: 3d4ed3bb
/model.26/Concat_output_0: 3e660bad
/model.28/cv2.2/cv2.2.2/Conv_output_0: 3f8549b2
/model.28/cv3.2/cv3.2.2/Conv_output_0: 3e8df51e
/model.27/cv1/conv/Conv_output_0: 3dcf076a
/model.27/cv2/conv/Conv_output_0: 3de3a10e
/model.28/Concat_2_output_0: 3f8549b2
/model.27/cv1/act/Sigmoid_output_0: 3c0101ee
/model.27/cv2/act/Sigmoid_output_0: 3c0101fe
/model.28/Reshape_2_output_0: 3f8549b2
/model.27/cv1/act/Mul_output_0: 3dcf0747
/model.27/cv2/act/Mul_output_0: 3de3a103
/model.27/m/m.0/conv/conv.0/cv1/conv/Conv_output_0: 3d8bba09
/model.27/m/m.0/conv/conv.0/cv1/act/Sigmoid_output_0: 3c00f056
/model.27/m/m.0/conv/conv.0/cv1/act/Mul_output_0: 3d72cb20
/model.27/m/m.0/conv/conv.0/cv2/conv/Conv_output_0: 3d6e554a
/model.27/m/m.0/conv/conv.0/cv2/act/Sigmoid_output_0: 3c00eda2
/model.27/m/m.0/conv/conv.0/cv2/act/Mul_output_0: 3d6e2fa2
/model.27/m/m.0/conv/conv.0/Concat_output_0: 3d72cb20
/model.27/m/m.0/conv/conv.2/cv1/conv/Conv_output_0: 3d839c13
/model.27/m/m.0/conv/conv.2/cv2/conv/Conv_output_0: 3d372ca0
/model.27/m/m.0/conv/conv.2/Concat_output_0: 3d839c13
/model.27/m/m.0/Add_output_0: 3dd923aa
/model.27/Concat_output_0: 3de3a103
/model.27/cv3/conv/Conv_output_0: 3dc10f9a
/model.27/cv3/act/Sigmoid_output_0: 3c0101ce
/model.27/cv3/act/Mul_output_0: 3dc10f4a
/model.28/cv2.3/cv2.3.0/conv/Conv_output_0: 3dab50e4
/model.28/cv3.3/cv3.3.0/conv/Conv_output_0: 3da028bf
/model.28/cv2.3/cv2.3.0/act/Sigmoid_output_0: 3c010137
/model.28/cv3.3/cv3.3.0/act/Sigmoid_output_0: 3c010069
/model.28/cv2.3/cv2.3.0/act/Mul_output_0: 3dab4fd4
/model.28/cv3.3/cv3.3.0/act/Mul_output_0: 3da026c1
/model.28/cv2.3/cv2.3.1/conv/Conv_output_0: 3e382c05
/model.28/cv3.3/cv3.3.1/conv/Conv_output_0: 3d6b1804
/model.28/cv2.3/cv2.3.1/act/Sigmoid_output_0: 3c010204
/model.28/cv3.3/cv3.3.1/act/Sigmoid_output_0: 3c00eb7a
/model.28/cv2.3/cv2.3.1/act/Mul_output_0: 3e382c05
/model.28/cv3.3/cv3.3.1/act/Mul_output_0: 3d6aeef2
/model.28/cv2.3/cv2.3.2/Conv_output_0: 4031ec15
/model.28/cv3.3/cv3.3.2/Conv_output_0: 3e52ca46
/model.28/Concat_3_output_0: 4031ec15
/model.28/Reshape_3_output_0: 4031ec15
/model.28/Concat_4_output_0: 4031ec15
/model.28/Split_output_0: 4031ec15
/model.28/Split_output_1: 3e983e67
/model.28/dfl/Reshape_output_0: 4031ec15
/model.28/Sigmoid_output_0: 3b38281a
/model.28/dfl/Transpose_output_0: 4031ec15
/model.28/dfl/Softmax_output: 3c010204
/model.28/dfl/Softmax_output_0: 3c010204
/model.28/dfl/conv/Conv_output_0: 3dee16de
/model.28/dfl/Reshape_1_output_0: 3dee16de
/model.28/Slice_1_output_0: 3dbb5482
ONNXTRT_Broadcast_86_output: 3e810204
ONNXTRT_Broadcast_output: 3c810204
/model.28/Concat_5_output_0: 3fa10b5d
/model.28/Constant_10_output_0_output: 3fa0c183
/model.28/Sub_output_0: 3fa086c4
/model.28/Constant_12_output_0_output: 3c810204
/model.28/Constant_11_output_0_output: 3fa0c183
/model.28/Mul_2_output_0: 40abe32c
/model.28/Add_1_output_0: 3fa50861
/model.28/Slice_output_0: 3dee16de
/model.28/Sub_1_output_0: 3e4ef795
/model.28/Add_2_output_0: 40210b5d
/model.28/Div_1_output_0: 3fa10b5d
output0: 40abe32c
/model.28/Constant_13_output_0_output: 3e810204
